{"version":"1.0","truncation":null,"padding":null,"added_tokens":[{"id":0,"special":true,"content":"[PAD]","single_word":false,"lstrip":false,"rstrip":false,"normalized":false},{"id":1,"special":true,"content":"[MASK]","single_word":false,"lstrip":false,"rstrip":false,"normalized":false}],"normalizer":null,"pre_tokenizer":{"type":"Whitespace"},"post_processor":null,"decoder":null,"model":{"type":"BPE","dropout":null,"unk_token":"[MASK]","continuing_subword_prefix":null,"end_of_word_suffix":null,"fuse_unk":false,"vocab":{"[PAD]":0,"[MASK]":1,"!":2,"\"":3,"%":4,"&":5,"'":6,"(":7,")":8,",":9,"-":10,".":11,"/":12,"0":13,"1":14,"2":15,"3":16,"4":17,"5":18,"8":19,"9":20,":":21,";":22,"=":23,"?":24,"\\":25,"`":26,"a":27,"b":28,"c":29,"d":30,"e":31,"f":32,"g":33,"h":34,"i":35,"j":36,"k":37,"l":38,"m":39,"n":40,"o":41,"p":42,"q":43,"r":44,"s":45,"t":46,"u":47,"v":48,"w":49,"x":50,"y":51,"z":52,"�":53,"th":54,"an":55,"and":56,"bi":57,"ll":58,"wi":59,"is":60,"rd":61,"bird":62,"as":63,"ow":64,"ck":65,"re":66,"la":67,"it":68,"with":69,"has":70,"ng":71,"bla":72,"black":73,"be":74,"this":75,"wh":76,"row":77,"ite":78,"white":79,"rown":80,"ye":81,"brown":82,"the":83,"or":84,"wing":85,"ma":86,"at":87,"ak":88,"ed":89,"beak":90,"in":91,"lly":92,"belly":93,"ri":94,"sma":95,"small":96,"ea":97,"wings":98,"yell":99,"yellow":100,"lo":101,"bill":102,"ar":103,"gre":104,"co":105,"ge":106,"er":107,"long":108,"po":109,"ast":110,"bre":111,"breast":112,"grey":113,"red":114,"st":115,"crown":116,"sh":117,"that":118,"ead":119,"head":120,"eye":121,"int":122,"on":123,"es":124,"point":125,"its":126,"ro":127,"ra":128,"gh":129,"are":130,"en":131,"bo":132,"ort":133,"gra":134,"ght":135,"ange":136,"gray":137,"ch":138,"orange":139,"short":140,"bod":141,"lar":142,"body":143,"ver":144,"lu":145,"eathe":146,"feathe":147,"feather":148,"il":149,"lor":150,"color":151,"feathers":152,"of":153,"thro":154,"ee":155,"ta":156,"nd":157,"blu":158,"pe":159,"throat":160,"li":161,"blue":162,"large":163,"ti":164,"tail":165,"pointed":166,"ark":167,"si":168,"very":169,"dark":170,"ars":171,"ring":172,"light":173,"ba":174,"pointy":175,"back":176,"le":177,"cu":178,"green":179,"fee":180,"ly":181,"feet":182,"und":183,"stri":184,"ries":185,"um":186,"ing":187,"eyes":188,"to":189,"pot":190,"spot":191,"bri":192,"ne":193,"pat":194,"bright":195,"med":196,"neck":197,"ium":198,"medium":199,"siz":200,"mo":201,"patch":202,"colo":203,"colored":204,"strip":205,"se":206,"om":207,"bars":208,"us":209,"na":210,"cur":211,"ve":212,"nape":213,"ul":214,"curv":215,"sized":216,"tars":217,"led":218,"spe":219,"speck":220,"tarsus":221,"par":222,"all":223,"che":224,"cond":225,"second":226,"pri":227,"ce":228,"most":229,"prima":230,"chest":231,"de":232,"wingbars":233,"aries":234,"ut":235,"eek":236,"shar":237,"sharp":238,"curved":239,"secondaries":240,"ish":241,"we":242,"eyering":243,"cheek":244,"ts":245,"tri":246,"cular":247,"parti":248,"tan":249,"particular":250,"ful":251,"speckled":252,"ted":253,"primaries":254,"brow":255,"mostly":256,"ab":257,"dom":258,"tip":259,"abdom":260,"abdomen":261,"cover":262,"spotted":263,"al":264,"eyebrow":265,"fa":266,"tin":267,"tric":268,"up":269,"round":270,"spots":271,"under":272,"trices":273,"colorful":274,"rest":275,"mp":276,"striped":277,"des":278,"coverts":279,"out":280,"cove":281,"lit":282,"tle":283,"own":284,"side":285,"face":286,"little":287,"down":288,"rings":289,"over":290,"thi":291,"rec":292,"leg":293,"legs":294,"ary":295,"tiny":296,"stripes":297,"well":298,"thin":299,"ok":300,"comp":301,"stripe":302,"rectrices":303,"ound":304,"around":305,"inn":306,"erc":307,"sup":308,"thick":309,"superc":310,"plu":311,"ent":312,"fla":313,"ard":314,"covering":315,"sha":316,"so":317,"flat":318,"ome":319,"some":320,"ex":321,"pin":322,"along":323,"end":324,"ili":325,"top":326,"ur":327,"pink":328,"supercili":329,"ward":330,"web":331,"bed":332,"ff":333,"patches":334,"webbed":335,"superciliary":336,"ha":337,"downward":338,"rea":339,"ped":340,"for":341,"by":342,"sk":343,"size":344,"king":345,"arrow":346,"darker":347,"narrow":348,"rom":349,"inny":350,"skinny":351,"ear":352,"sides":353,"ac":354,"mar":355,"his":356,"stre":357,"tips":358,"ure":359,"but":360,"streak":361,"big":362,"ely":363,"sp":364,"mi":365,"from":366,"ight":367,"slight":368,"stra":369,"ru":370,"mage":371,"ared":372,"mul":373,"straight":374,"ugh":375,"ho":376,"compared":377,"vi":378,"plumage":379,"go":380,"ream":381,"look":382,"��":383,"ter":384,"cream":385,"ub":386,"bea":387,"marking":388,"through":389,"wide":390,"bar":391,"cep":392,"eyebrows":393,"excep":394,"tt":395,"ion":396,"coloring":397,"hook":398,"outer":399,"ffy":400,"ant":401,"tern":402,"whi":403,"slightly":404,"qu":405,"dis":406,"les":407,"which":408,"fe":409,"ump":410,"multi":411,"ile":412,"wo":413,"ubby":414,"rounded":415,"while":416,"also":417,"vent":418,"ld":419,"tive":420,"pattern":421,"ke":422,"per":423,"markings":424,"hooked":425,"rump":426,"underbelly":427,"shades":428,"ir":429,"mix":430,"let":431,"nt":432,"ton":433,"pa":434,"retrices":435,"except":436,"mott":437,"streaks":438,"lend":439,"distin":440,"distinc":441,"covered":442,"fl":443,"two":444,"throughout":445,"uti":446,"beauti":447,"gu":448,"lli":449,"redd":450,"reddish":451,"wat":452,"ank":453,"mottled":454,"gold":455,"pale":456,"beautiful":457,"flank":458,"complet":459,"like":460,"ap":461,"stubby":462,"urp":463,"curves":464,"water":465,"crest":466,"purp":467,"lighter":468,"completely":469,"enti":470,"flu":471,"colors":472,"tipped":473,"wingbar":474,"ature":475,"du":476,"purple":477,"entire":478,"br":479,"cent":480,"ss":481,"plump":482,"pan":483,"brownish":484,"un":485,"inner":486,"fluffy":487,"fat":488,"ige":489,"me":490,"wingspan":491,"beige":492,"speckles":493,"tones":494,"feature":495,"looking":496,"lid":497,"gular":498,"app":499,"solid":500,"shin":501,"cen":502,"near":503,"features":504,"almost":505,"have":506,"con":507,"trian":508,"ext":509,"shiny":510,"ot":511},"merges":["t h","a n","an d","b i","l l","w i","i s","r d","bi rd","a s","o w","c k","r e","l a","i t","wi th","h as","n g","b la","bla ck","b e","th is","w h","r ow","it e","wh ite","row n","y e","b rown","th e","o r","wi ng","m a","a t","a k","e d","be ak","i n","ll y","be lly","r i","s ma","sma ll","e a","wing s","ye ll","yell ow","l o","bi ll","a r","g re","c o","g e","e r","lo ng","p o","as t","b re","bre ast","gre y","re d","s t","c rown","s h","th at","ea d","h ead","e ye","in t","o n","e s","po int","it s","r o","r a","g h","a re","e n","b o","or t","g ra","gh t","an ge","gra y","c h","or ange","sh ort","bo d","la r","bod y","v er","l u","ea the","f eathe","feathe r","i l","l or","co lor","feather s","o f","th ro","e e","t a","n d","b lu","p e","thro at","l i","blu e","lar ge","t i","ta il","point ed","ar k","s i","ver y","d ark","ar s","ri ng","li ght","b a","point y","ba ck","l e","c u","gre en","f ee","l y","fee t","u nd","st ri","ri es","u m","i ng","eye s","t o","po t","s pot","b ri","n e","p at","bri ght","m ed","ne ck","i um","med ium","si z","m o","pat ch","co lo","colo red","stri p","s e","o m","b ars","u s","n a","cu r","v e","na pe","u l","cur v","siz ed","t ars","l ed","s pe","spe ck","tars us","p ar","a ll","ch e","co nd","se cond","p ri","c e","mo st","pri ma","che st","d e","wing bars","a ries","u t","ee k","sh ar","shar p","curv ed","second aries","is h","w e","eye ring","ch eek","t s","t ri","cu lar","par ti","t an","parti cular","f ul","speck led","t ed","prima ries","b row","most ly","a b","d om","ti p","ab dom","abdom en","co ver","spot ted","a l","eye brow","f a","t in","tri c","u p","ro und","spot s","und er","tric es","color ful","re st","m p","strip ed","d es","cover ts","o ut","co ve","l it","t le","ow n","si de","fa ce","lit tle","d own","ring s","o ver","th i","re c","le g","leg s","ar y","tin y","strip es","we ll","th in","o k","co mp","stri pe","rec trices","o und","ar ound","in n","er c","s up","thi ck","sup erc","p lu","en t","f la","a rd","cove ring","sh a","s o","fla t","om e","s ome","e x","p in","a long","en d","il i","to p","u r","pin k","superc ili","w ard","we b","be d","f f","patch es","web bed","supercili ary","h a","down ward","re a","p ed","f or","b y","s k","siz e","k ing","ar row","dark er","n arrow","ro m","inn y","sk inny","ea r","si des","a c","ma r","h is","st re","tip s","u re","b ut","stre ak","bi g","e ly","s p","m i","f rom","i ght","s light","st ra","r u","ma ge","a red","m ul","stra ight","u gh","h o","comp ared","v i","plu mage","g o","rea m","lo ok","� �","t er","c ream","u b","be a","mar king","thro ugh","wi de","b ar","ce p","eyebrow s","ex cep","t t","i on","color ing","ho ok","out er","ff y","an t","ter n","wh i","slight ly","q u","d is","l es","whi ch","f e","um p","mul ti","il e","w o","ub by","round ed","wh ile","al so","v ent","l d","ti ve","pat tern","k e","p er","marking s","hook ed","r ump","under belly","sha des","i r","mi x","le t","n t","t on","p a","re trices","excep t","mo tt","streak s","l end","dis tin","distin c","cove red","f l","t wo","through out","u ti","bea uti","g u","ll i","red d","redd ish","w at","an k","mott led","go ld","pa le","beauti ful","fl ank","comp let","li ke","a p","st ubby","ur p","curv es","wat er","c rest","p urp","light er","complet ely","en ti","f lu","color s","tip ped","wing bar","at ure","d u","purp le","enti re","b r","c ent","s s","plu mp","p an","brown ish","u n","inn er","flu ffy","f at","i ge","m e","wings pan","be ige","speck les","ton es","fe ature","look ing","li d","gu lar","ap p","so lid","sh in","c en","n ear","feature s","al most","ha ve","co n","tri an","ex t","shin y","o t"]}}